TRT-8001-EntropyCalibration2
input_1: 3c010a14
conv1/convolution: 3cf1b2da
conv1/BiasAdd: 3cf1b2da
bn_conv1/batchnorm/mul_1: 3db9fd41
bn_conv1/batchnorm/add_1: 3d679cbf
activation_1/Relu: 3db4aeba
block_1a_conv_1/convolution: 3e5a52a3
block_1a_conv_1/BiasAdd: 3e5a52a3
block_1a_bn_1/batchnorm/mul_1: 3e248a20
block_1a_bn_1/batchnorm/add_1: 3dc509e2
block_1a_relu_1/Relu: 3d8d6388
block_1a_conv_2/convolution: 3da5b193
block_1a_conv_2/BiasAdd: 3da5b193
block_1a_bn_2/batchnorm/mul_1: 3dc746c6
block_1a_bn_2/batchnorm/add_1: 3d5e7ddc
block_1a_conv_shortcut/convolution: 3d4b7941
block_1a_conv_shortcut/BiasAdd: 3d4b7941
block_1a_bn_shortcut/batchnorm/mul_1: 3d9ab2a6
block_1a_bn_shortcut/batchnorm/add_1: 3d468333
add_1/add: 3d90ec0c
block_1a_relu/Relu: 3d9714dd
block_1b_conv_1/convolution: 3d953fa4
block_1b_conv_1/BiasAdd: 3d953fa4
block_1b_bn_1/batchnorm/mul_1: 3df8c711
block_1b_bn_1/batchnorm/add_1: 3d593a9c
block_1b_relu_1/Relu: 3d81d0b7
block_1b_conv_2/convolution: 3cad6f4e
block_1b_conv_2/BiasAdd: 3cad6f4e
block_1b_bn_2/batchnorm/mul_1: 3dc8c305
block_1b_bn_2/batchnorm/add_1: 3d60ebe2
block_1b_conv_shortcut/convolution: 3ccdc628
block_1b_conv_shortcut/BiasAdd: 3ccdc628
block_1b_bn_shortcut/batchnorm/mul_1: 3e03ab4e
block_1b_bn_shortcut/batchnorm/add_1: 3d917bb3
add_2/add: 3db88164
block_1b_relu/Relu: 3de60d4a
block_2a_conv_1/convolution: 3d9a8be2
block_2a_conv_1/BiasAdd: 3d9a8be2
block_2a_bn_1/batchnorm/mul_1: 3dfb13fd
block_2a_bn_1/batchnorm/add_1: 3d3652eb
block_2a_relu_1/Relu: 3e0e5783
block_2a_conv_2/convolution: 3d8bd0fb
block_2a_conv_2/BiasAdd: 3d8bd0fb
block_2a_bn_2/batchnorm/mul_1: 3e032730
block_2a_bn_2/batchnorm/add_1: 3d9b8f81
block_2a_conv_shortcut/convolution: 3c7b4793
block_2a_conv_shortcut/BiasAdd: 3c7b4793
block_2a_bn_shortcut/batchnorm/mul_1: 3d3ecffa
block_2a_bn_shortcut/batchnorm/add_1: 3c83c705
add_3/add: 3d82a486
block_2a_relu/Relu: 3ded0077
block_2b_conv_1/convolution: 3d7a27f6
block_2b_conv_1/BiasAdd: 3d7a27f6
block_2b_bn_1/batchnorm/mul_1: 3dacc29a
block_2b_bn_1/batchnorm/add_1: 3d2c74c8
block_2b_relu_1/Relu: 3d8a1417
block_2b_conv_2/convolution: 3cb6105c
block_2b_conv_2/BiasAdd: 3cb6105c
block_2b_bn_2/batchnorm/mul_1: 3e09104a
block_2b_bn_2/batchnorm/add_1: 3d3bdea5
block_2b_conv_shortcut/convolution: 3cb2c641
block_2b_conv_shortcut/BiasAdd: 3cb2c641
block_2b_bn_shortcut/batchnorm/mul_1: 3dd2cd32
block_2b_bn_shortcut/batchnorm/add_1: 3d2462fe
add_4/add: 3da2564d
block_2b_relu/Relu: 3df3248b
block_3a_conv_1/convolution: 3dd7058a
block_3a_conv_1/BiasAdd: 3dd7058a
block_3a_bn_1/batchnorm/mul_1: 3e0fa2e1
block_3a_bn_1/batchnorm/add_1: 3d23d863
block_3a_relu_1/Relu: 3db9a2d9
block_3a_conv_2/convolution: 3dc6a1ef
block_3a_conv_2/BiasAdd: 3dc6a1ef
block_3a_bn_2/batchnorm/mul_1: 3dfa0c01
block_3a_bn_2/batchnorm/add_1: 3d867c63
block_3a_conv_shortcut/convolution: 3c2df331
block_3a_conv_shortcut/BiasAdd: 3c2df331
block_3a_bn_shortcut/batchnorm/mul_1: 3c7d17e9
block_3a_bn_shortcut/batchnorm/add_1: 3c574b14
add_5/add: 3d9f241b
block_3a_relu/Relu: 3d45e9e1
block_3b_conv_1/convolution: 3d64db2f
block_3b_conv_1/BiasAdd: 3d64db2f
block_3b_bn_1/batchnorm/mul_1: 3da67b8c
block_3b_bn_1/batchnorm/add_1: 3cf8547a
block_3b_relu_1/Relu: 3dd082f5
block_3b_conv_2/convolution: 3cd3234f
block_3b_conv_2/BiasAdd: 3cd3234f
block_3b_bn_2/batchnorm/mul_1: 3dd19320
block_3b_bn_2/batchnorm/add_1: 3ce08d95
block_3b_conv_shortcut/convolution: 3ce04f54
block_3b_conv_shortcut/BiasAdd: 3ce04f54
block_3b_bn_shortcut/batchnorm/mul_1: 3dccbb9e
block_3b_bn_shortcut/batchnorm/add_1: 3d0ea902
add_6/add: 3dbc8d04
block_3b_relu/Relu: 3da345e1
block_4a_conv_1/convolution: 3d9d1094
block_4a_conv_1/BiasAdd: 3d9d1094
block_4a_bn_1/batchnorm/mul_1: 3e0648d4
block_4a_bn_1/batchnorm/add_1: 3d9f0a49
block_4a_relu_1/Relu: 3dae22b0
block_4a_conv_2/convolution: 3d5d001c
block_4a_conv_2/BiasAdd: 3d5d001c
block_4a_bn_2/batchnorm/mul_1: 3e42a70b
block_4a_bn_2/batchnorm/add_1: 3e4195d7
block_4a_conv_shortcut/convolution: 3cbd5e8a
block_4a_conv_shortcut/BiasAdd: 3cbd5e8a
block_4a_bn_shortcut/batchnorm/mul_1: 3e4b1c2c
block_4a_bn_shortcut/batchnorm/add_1: 3e4d0b30
add_7/add: 3ecedd71
block_4a_relu/Relu: 3ed1e560
block_4b_conv_1/convolution: 3e8900d7
block_4b_conv_1/BiasAdd: 3e8900d7
block_4b_bn_1/batchnorm/mul_1: 3e011c33
block_4b_bn_1/batchnorm/add_1: 3e03c589
block_4b_relu_1/Relu: 3d9f8faf
block_4b_conv_2/convolution: 3e50853d
block_4b_conv_2/BiasAdd: 3e50853d
block_4b_bn_2/batchnorm/mul_1: 3e02c206
block_4b_bn_2/batchnorm/add_1: 3d9c792c
block_4b_conv_shortcut/convolution: 3dd7cd0a
block_4b_conv_shortcut/BiasAdd: 3dd7cd0a
block_4b_bn_shortcut/batchnorm/mul_1: 3e16747e
block_4b_bn_shortcut/batchnorm/add_1: 3e21400e
add_8/add: 3e308423
block_4b_relu/Relu: 3e156adb
output_bbox/convolution: 3d99065c
output_bbox/BiasAdd: 3d929105
output_cov/convolution: 3f01345e
output_cov/BiasAdd: 3f0eaa9c
output_cov/Sigmoid: 3bfc98e0
